{
  "vocab": {
    "<unk>": 0,
    "<bos>": 1,
    "<eos>": 2,
    "=": 3,
    "[OO:THINK]": 4,
    "[OO:ACT]": 5,
    "[OO:FEEL]": 6,
    "[OO:END]": 7,
    "[SAFE]": 8,
    "[SYS]": 9,
    "[MATH]": 10,
    "[CODE]": 11,
    "[SYSTEM]": 12,
    "[CHAT]": 13,
    "[PLAN]": 14,
    "%": 15,
    "(": 16,
    ")": 17,
    "*": 18,
    "+": 19,
    ",": 20,
    "-": 21,
    ".": 22,
    "/": 23,
    "0": 24,
    "1": 25,
    "2": 26,
    "3": 27,
    "4": 28,
    "5": 29,
    "6": 30,
    "7": 31,
    "8": 32,
    ":": 33,
    ";": 34,
    "<": 35,
    "</w>": 36,
    "?": 37,
    "[": 38,
    "]": 39,
    "^": 40,
    "_": 41,
    "a": 42,
    "b": 43,
    "c": 44,
    "d": 45,
    "e": 46,
    "f": 47,
    "g": 48,
    "h": 49,
    "i": 50,
    "j": 51,
    "k": 52,
    "l": 53,
    "m": 54,
    "n": 55,
    "o": 56,
    "p": 57,
    "q": 58,
    "r": 59,
    "s": 60,
    "t": 61,
    "u": 62,
    "v": 63,
    "w": 64,
    "x": 65,
    "y": 66,
    "z": 67,
    "{": 68,
    "}": 69,
    "\u2014": 70,
    "\u2192": 71,
    "s</w>": 72,
    "e</w>": 73,
    ".</w>": 74,
    "in": 75,
    "t</w>": 76,
    "=</w>": 77,
    "re": 78,
    "on": 79,
    "ha": 80,
    "a</w>": 81,
    "th": 82,
    "is</w>": 83,
    "ra": 84,
    "en": 85,
    "st": 86,
    ",</w>": 87,
    "wha": 88,
    "what</w>": 89,
    "or": 90,
    "ti": 91,
    "?</w>": 92,
    "an": 93,
    "er": 94,
    "d</w>": 95,
    "the</w>": 96,
    "ac": 97,
    "le": 98,
    "in</w>": 99,
    "em": 100,
    "it": 101,
    "l</w>": 102,
    "ar": 103,
    "y</w>": 104,
    "f</w>": 105,
    "s.</w>": 106,
    "se": 107,
    "tion": 108,
    "g</w>": 109,
    "ro": 110,
    "to": 111,
    "oo": 112,
    "of</w>": 113,
    "ce": 114,
    "0</w>": 115,
    "de": 116,
    "la": 117,
    "+</w>": 118,
    "ex": 119,
    "ge": 120,
    "ur": 121,
    ")</w>": 122,
    "int</w>": 123,
    "si": 124,
    "ne": 125,
    "5</w>": 126,
    "m</w>": 127,
    "or</w>": 128,
    "ca": 129,
    "sy": 130,
    "syst": 131,
    "and</w>": 132,
    "to</w>": 133,
    "ing</w>": 134,
    "con": 135,
    ":</w>": 136,
    "2</w>": 137,
    "10": 138,
    "ang": 139,
    "*</w>": 140,
    "ch": 141,
    "pro": 142,
    "1;": 143,
    "el": 144,
    "at": 145,
    "x</w>": 146,
    "fi": 147,
    "ut</w>": 148,
    "pre": 149,
    "5.</w>": 150,
    "3.</w>": 151,
    "les</w>": 152,
    "ri": 153,
    "8</w>": 154,
    "ces": 155,
    "ed": 156,
    "tw": 157,
    "li": 158,
    "-1;": 159,
    "wh": 160,
    "s[": 161,
    "}</w>": 162,
    "bu": 163,
    "per": 164,
    "kv": 165,
    "0.": 166,
    "mp": 167,
    "gh": 168,
    "k</w>": 169,
    "lear": 170,
    "loo": 171,
    "loop": 172,
    "th</w>": 173,
    "3</w>": 174,
    "tri": 175,
    "al": 176,
    "exp": 177,
    "system</w>": 178,
    "proces": 179,
    "processe": 180,
    "tion</w>": 181,
    "be": 182,
    "en</w>": 183,
    "writ": 184,
    "write</w>": 185,
    "ver": 186,
    "l=": 187,
    "r=": 188,
    "-1;</w>": 189,
    "(l": 190,
    "r)": 191,
    "]=": 192,
    "system": 193,
    "cy": 194,
    "cyc": 195,
    "bud": 196,
    "budge": 197,
    "ts</w>": 198,
    "sa": 199,
    "kv</w>": 200,
    "persi": 201,
    "persist": 202,
    "persisten": 203,
    "ma": 204,
    "mo": 205,
    "model</w>": 206,
    "ol": 207,
    "24": 208,
    "/</w>": 209,
    "oo</w>": 210,
    "memor": 211,
    "memory</w>": 212,
    "igh": 213,
    "ut": 214,
    "sp": 215,
    "put</w>": 216,
    "a,</w>": 217,
    "b</w>": 218,
    "learn": 219,
    "pres": 220,
    "press": 221,
    "pressure</w>": 222,
    "tok": 223,
    "ent</w>": 224,
    "di": 225,
    "dar": 226,
    "rec": 227,
    "2.</w>": 228,
    "su": 229,
    "sum</w>": 230,
    "angles</w>": 231,
    "triang": 232,
    "int": 233,
    "es.</w>": 234,
    "7</w>": 235,
    "15.</w>": 236,
    "56": 237,
    "15</w>": 238,
    "expla": 239,
    "explain</w>": 240,
    "an</w>": 241,
    "operating</w>": 242,
    "hard": 243,
    "hardw": 244,
    "our": 245,
    "s,</w>": 246,
    "lay": 247,
    "layer": 248,
    "betw": 249,
    "betwe": 250,
    "between</w>": 251,
    "rever": 252,
    "char</w>": 253,
    "{</w>": 254,
    "l=0": 255,
    "whi": 256,
    "while": 257,
    "while(l": 258,
    "while(l<": 259,
    "r){": 260,
    "s[l": 261,
    "];": 262,
    "s[r": 263,
    "sentinel</w>": 264,
    "cycle</w>": 265,
    "feren": 266,
    "ference</w>": 267,
    "pha": 268,
    "t,</w>": 269,
    "ec": 270,
    "ce?</w>": 271,
    "ve": 272,
    "stat": 273,
    "acro": 274,
    "acros": 275,
    "across</w>": 276,
    "cont": 277,
    "contex": 278,
    "(x": 279,
    "(x-": 280,
    "15": 281,
    "15%": 282,
    "15%</w>": 283,
    "(3": 284,
    "/3</w>": 285,
    "zone": 286,
    "gi": 287,
    "we": 288,
    "weigh": 289,
    "weight": 290,
    "e,</w>": 291,
    "acti": 292,
    "has</w>": 293,
    "lo": 294,
    "cap": 295,
    "capit": 296,
    "capital</w>": 297,
    "fran": 298,
    "neural</w>": 299,
    "netw": 300,
    "networ": 301,
    "co": 302,
    "tions</w>": 303,
    "out": 304,
    "output</w>": 305,
    "ter": 306,
    "fib": 307,
    "i</w>": 308,
    "(n": 309,
    "(n)": 310,
    "(n):</w>": 311,
    "for</w>": 312,
    "eld</w>": 313,
    "2^": 314,
    "machine</w>": 315,
    "where</w>": 316,
    "dat": 317,
    "data</w>": 318,
    "with": 319,
    "without</w>": 320,
    "gn": 321,
    "tra": 322,
    "12": 323,
    "120</w>": 324,
    "spe": 325,
    "0.7": 326,
    "0.75</w>": 327,
    "dark</w>": 328,
    "loop?</w>": 329,
    "loop</w>": 330,
    "recur": 331,
    "recurren": 332,
    "token": 333,
    "leng": 334,
    "length</w>": 335,
    "wi": 336,
    "wid": 337,
    "width</w>": 338,
    "ram</w>": 339,
    "\u2192</w>": 340,
    "sear": 341,
    "search": 342,
    ";</w>": 343,
    "if": 344,
    "if(": 345,
    "if(a": 346,
    "if(a[": 347,
    "if(a[m": 348,
    "t)": 349,
    "ret": 350,
    "retur": 351,
    "return": 352,
    "return</w>": 353,
    "x=": 354,
    "x=5.</w>": 355,
    "y=": 356,
    "y=x": 357,
    "y=x*": 358,
    "y=x*2.</w>": 359,
    "z=": 360,
    "z=y": 361,
    "z=y+": 362,
    "z=y+3.</w>": 363,
    "w=": 364,
    "w=z": 365,
    "w=z-": 366,
    "w=z-x": 367,
    "w=z-x.</w>": 368,
    "w?</w>": 369,
    "5*": 370,
    "5*2</w>": 371,
    "z</w>": 372,
    "10+": 373,
    "10+3</w>": 374,
    "13.</w>": 375,
    "w</w>": 376,
    "13": 377,
    "13-": 378,
    "13-5</w>": 379,
    "8.</w>": 380,
    "triangle": 381,
    "triangle?</w>": 382,
    "interior</w>": 383,
    "alw": 384,
    "alwa": 385,
    "alway": 386,
    "always</w>": 387,
    "18": 388,
    "180</w>": 389,
    "deg": 390,
    "degre": 391,
    "degrees.</w>": 392,
    "calc": 393,
    "calcu": 394,
    "calculat": 395,
    "calculate</w>": 396,
    "56.</w>": 397,
    "56</w>": 398,
    "71": 399,
    "71.</w>": 400,
    "do": 401,
    "does.</w>": 402,
    "mana": 403,
    "manage": 404,
    "manages</w>": 405,
    "hardware</w>": 406,
    "res": 407,
    "resour": 408,
    "resources,</w>": 409,
    "sch": 410,
    "sched": 411,
    "schedu": 412,
    "schedules</w>": 413,
    "processes,</w>": 414,
    "prov": 415,
    "provi": 416,
    "provide": 417,
    "provides</w>": 418,
    "layer</w>": 419,
    "ab": 420,
    "abstraction</w>": 421,
    "ap": 422,
    "app": 423,
    "appli": 424,
    "applications</w>": 425,
    "hardware": 426,
    "hardware.</w>": 427,
    "c</w>": 428,
    "fu": 429,
    "fun": 430,
    "func": 431,
    "function</w>": 432,
    "reverse</w>": 433,
    "place": 434,
    "place.</w>": 435,
    "vo": 436,
    "voi": 437,
    "void</w>": 438,
    "reverse": 439,
    "reverse(": 440,
    "reverse(char</w>": 441,
    "*s": 442,
    "*s)</w>": 443,
    "l=0,</w>": 444,
    "r=st": 445,
    "r=str": 446,
    "r=strlen": 447,
    "r=strlen(": 448,
    "r=strlen(s": 449,
    "r=strlen(s)": 450,
    "r=strlen(s)-1;</w>": 451,
    "while(l<r){": 452,
    "while(l<r){char</w>": 453,
    "t=": 454,
    "t=s[l": 455,
    "t=s[l];": 456,
    "t=s[l];s[l": 457,
    "t=s[l];s[l+": 458,
    "t=s[l];s[l++": 459,
    "t=s[l];s[l++]=": 460,
    "t=s[l];s[l++]=s[r": 461,
    "t=s[l];s[l++]=s[r];": 462,
    "t=s[l];s[l++]=s[r];s[r": 463,
    "t=s[l];s[l++]=s[r];s[r-": 464,
    "t=s[l];s[l++]=s[r];s[r--": 465,
    "t=s[l];s[l++]=s[r];s[r--]=": 466,
    "t=s[l];s[l++]=s[r];s[r--]=t": 467,
    "t=s[l];s[l++]=s[r];s[r--]=t;": 468,
    "t=s[l];s[l++]=s[r];s[r--]=t;}</w>": 469,
    "system?</w>": 470,
    "track": 471,
    "tracks</w>": 472,
    "budgets</w>": 473,
    "per</w>": 474,
    "inference</w>": 475,
    "phase": 476,
    "phase.</w>": 477,
    "exce": 478,
    "exceed": 479,
    "exceeds</w>": 480,
    "budget,</w>": 481,
    "trip": 482,
    "trips</w>": 483,
    "halts</w>": 484,
    "exec": 485,
    "execution</w>": 486,
    "saf": 487,
    "safel": 488,
    "safely": 489,
    "safely.</w>": 490,
    "persistence?</w>": 491,
    "persistence</w>": 492,
    "save": 493,
    "saves</w>": 494,
    "cache</w>": 495,
    "state</w>": 496,
    "reb": 497,
    "reboo": 498,
    "reboots</w>": 499,
    "maint": 500,
    "mainta": 501,
    "maintain</w>": 502,
    "iden": 503,
    "identit": 504,
    "identity</w>": 505,
    "continu": 506,
    "continuit": 507,
    "continuity</w>": 508,
    "\u2014</w>": 509,
    "remem": 510,
    "remember": 511,
    "remembers</w>": 512,
    "pri": 513,
    "prior</w>": 514,
    "context": 515,
    "context.</w>": 516,
    "sol": 517,
    "solve": 518,
    "solve:</w>": 519,
    "x^": 520,
    "x^2</w>": 521,
    "-</w>": 522,
    "5x</w>": 523,
    "6</w>": 524,
    "fac": 525,
    "factor": 526,
    "factor:</w>": 527,
    "(x-2": 528,
    "(x-2)": 529,
    "(x-2)(x-": 530,
    "(x-2)(x-3": 531,
    "(x-2)(x-3)</w>": 532,
    "240": 533,
    "240?</w>": 534,
    "0.15.</w>": 535,
    "0.15</w>": 536,
    "36": 537,
    "36.</w>": 538,
    "simp": 539,
    "simplif": 540,
    "simplify": 541,
    "simplify:</w>": 542,
    "(3x</w>": 543,
    "6)</w>": 544,
    "(3x": 545,
    "(3x)": 546,
    "(3x)/3</w>": 547,
    "6/3</w>": 548,
    "zones": 549,
    "zones?</w>": 550,
    "regi": 551,
    "region": 552,
    "regions": 553,
    "regions:</w>": 554,
    "weights,</w>": 555,
    "kv_": 556,
    "kv_cach": 557,
    "kv_cache,</w>": 558,
    "sc": 559,
    "scrat": 560,
    "scratch": 561,
    "scratch,</w>": 562,
    "activ": 563,
    "activation": 564,
    "activations.</w>": 565,
    "each": 566,
    "each</w>": 567,
    "fix": 568,
    "fixed</w>": 569,
    "bump": 570,
    "bump</w>": 571,
    "allo": 572,
    "allocator": 573,
    "allocator.</w>": 574,
    "france?</w>": 575,
    "france</w>": 576,
    "pari": 577,
    "paris.</w>": 578,
    "network": 579,
    "network?</w>": 580,
    "comp": 581,
    "comput": 582,
    "computation": 583,
    "computational</w>": 584,
    "insp": 585,
    "inspi": 586,
    "inspired</w>": 587,
    "by</w>": 588,
    "bi": 589,
    "biolo": 590,
    "biologi": 591,
    "biological</w>": 592,
    "neuron": 593,
    "neurons.</w>": 594,
    "layers</w>": 595,
    "weighted</w>": 596,
    "connec": 597,
    "connections</w>": 598,
    "trans": 599,
    "transf": 600,
    "transfor": 601,
    "transform</w>": 602,
    "input</w>": 603,
    "thro": 604,
    "throu": 605,
    "through": 606,
    "through</w>": 607,
    "para": 608,
    "param": 609,
    "parame": 610,
    "parameter": 611,
    "parameters.</w>": 612,
    "fibon": 613,
    "fibonac": 614,
    "fibonacc": 615,
    "fibonacci</w>": 616,
    "seq": 617,
    "sequ": 618,
    "sequen": 619,
    "sequence</w>": 620,
    "py": 621,
    "pyth": 622,
    "python": 623,
    "python.</w>": 624,
    "def</w>": 625,
    "fib(n):</w>": 626,
    "0,</w>": 627,
    "1</w>": 628,
    "_</w>": 629,
    "range(n):</w>": 630,
    "yi": 631,
    "yield</w>": 632,
    "b,</w>": 633,
    "a+": 634,
    "a+b</w>": 635,
    "2^10": 636,
    "2^10?</w>": 637,
    "1024": 638,
    "1024.</w>": 639,
    "learnin": 640,
    "learning": 641,
    "learning?</w>": 642,
    "field</w>": 643,
    "ai</w>": 644,
    "systems</w>": 645,
    "learn</w>": 646,
    "pat": 647,
    "patter": 648,
    "pattern": 649,
    "patterns</w>": 650,
    "fro": 651,
    "from</w>": 652,
    "mak": 653,
    "make</w>": 654,
    "predic": 655,
    "predictions</w>": 656,
    "deci": 657,
    "decisi": 658,
    "decision": 659,
    "decisions</w>": 660,
    "being</w>": 661,
    "expli": 662,
    "explic": 663,
    "explicit": 664,
    "explicitl": 665,
    "explicitly</w>": 666,
    "prog": 667,
    "progra": 668,
    "program": 669,
    "programm": 670,
    "programmed": 671,
    "programmed.</w>": 672,
    "system.</w>": 673,
    "monitor": 674,
    "monitors</w>": 675,
    "arena</w>": 676,
    "usa": 677,
    "usage": 678,
    "usage.</w>": 679,
    "high": 680,
    "high</w>": 681,
    "sign": 682,
    "signal": 683,
    "signals</w>": 684,
    "dying</w>": 685,
    "state,</w>": 686,
    "redu": 687,
    "reduc": 688,
    "reducing</w>": 689,
    "budget</w>": 690,
    "prevent</w>": 691,
    "oom": 692,
    "oom.</w>": 693,
    "train</w>": 694,
    "travel": 695,
    "travels</w>": 696,
    "mi": 697,
    "miles</w>": 698,
    "hour": 699,
    "hours.</w>": 700,
    "speed": 701,
    "speed?</w>": 702,
    "dist": 703,
    "distan": 704,
    "distance</w>": 705,
    "tim": 706,
    "time</w>": 707,
    "60</w>": 708,
    "mph": 709,
    "mph.</w>": 710,
    "conver": 711,
    "convert</w>": 712,
    "fraction": 713,
    "fraction.</w>": 714,
    "75": 715,
    "75/": 716,
    "75/10": 717,
    "75/100</w>": 718,
    "3/": 719,
    "3/4": 720,
    "3/4.</w>": 721,
    "silent</w>": 722,
    "recurrence</w>": 723,
    "(=</w>": 724,
    "token)</w>": 725,
    "processes</w>": 726,
    "emitting</w>": 727,
    "surface</w>": 728,
    "tokens.</w>": 729,
    "rect": 730,
    "rectang": 731,
    "rectangle</w>": 732,
    "area": 733,
    "area?</w>": 734,
    "40.</w>": 735,
    "difference</w>": 736,
    "storage": 737,
    "storage?</w>": 738,
    "volatile</w>": 739,
    "fa": 740,
    "fast</w>": 741,
    "used</w>": 742,
    "(di": 743,
    "(dis": 744,
    "(disk": 745,
    "(disk)</w>": 746,
    "persistent,</w>": 747,
    "slo": 748,
    "slower": 749,
    "slower,</w>": 750,
    "hol": 751,
    "hold": 752,
    "holds</w>": 753,
    "po": 754,
    "power": 755,
    "power</w>": 756,
    "cycles.</w>": 757,
    "cogn": 758,
    "cogniti": 759,
    "cognitive</w>": 760,
    "dark": 761,
    "dark_": 762,
    "dark_loop</w>": 763,
    "(ma": 764,
    "(mam": 765,
    "(mamb": 766,
    "(mamba</w>": 767,
    "recurrence": 768,
    "recurrence)</w>": 769,
    "d+</w>": 770,
    "ju": 771,
    "jud": 772,
    "judg": 773,
    "judgm": 774,
    "judgment</w>": 775,
    "action.</w>": 776,
    "latent</w>": 777,
    "rea": 778,
    "reas": 779,
    "reason": 780,
    "reasoning</w>": 781,
    "fir": 782,
    "first,</w>": 783,
    "policy</w>": 784,
    "chec": 785,
    "check</w>": 786,
    "second": 787,
    "second,</w>": 788,
    "thi": 789,
    "thir": 790,
    "third": 791,
    "third.</w>": 792,
    "binar": 793,
    "binary</w>": 794,
    "search</w>": 795,
    "c.</w>": 796,
    "bsearch": 797,
    "bsearch(": 798,
    "bsearch(int</w>": 799,
    "*a,</w>": 800,
    "n,</w>": 801,
    "l=0,": 802,
    "l=0,r=": 803,
    "l=0,r=n": 804,
    "l=0,r=n-1;</w>": 805,
    "while(l<=": 806,
    "while(l<=r){": 807,
    "while(l<=r){int</w>": 808,
    "m=": 809,
    "m=(l": 810,
    "m=(l+": 811,
    "m=(l+r)": 812,
    "m=(l+r)/": 813,
    "m=(l+r)/2": 814,
    "m=(l+r)/2;</w>": 815,
    "if(a[m]=": 816,
    "if(a[m]==": 817,
    "if(a[m]==t)": 818,
    "if(a[m]==t)return</w>": 819,
    "m;</w>": 820,
    "if(a[m]": 821,
    "if(a[m]<": 822,
    "if(a[m]<t)": 823,
    "if(a[m]<t)l=": 824,
    "if(a[m]<t)l=m": 825,
    "if(a[m]<t)l=m+": 826,
    "if(a[m]<t)l=m+1;": 827,
    "if(a[m]<t)l=m+1;el": 828,
    "if(a[m]<t)l=m+1;else</w>": 829,
    "r=m": 830,
    "r=m-1;": 831,
    "r=m-1;}</w>": 832
  },
  "merges": [
    [
      "s",
      "</w>"
    ],
    [
      "e",
      "</w>"
    ],
    [
      ".",
      "</w>"
    ],
    [
      "i",
      "n"
    ],
    [
      "t",
      "</w>"
    ],
    [
      "=",
      "</w>"
    ],
    [
      "r",
      "e"
    ],
    [
      "o",
      "n"
    ],
    [
      "h",
      "a"
    ],
    [
      "a",
      "</w>"
    ],
    [
      "t",
      "h"
    ],
    [
      "i",
      "s</w>"
    ],
    [
      "r",
      "a"
    ],
    [
      "e",
      "n"
    ],
    [
      "s",
      "t"
    ],
    [
      ",",
      "</w>"
    ],
    [
      "w",
      "ha"
    ],
    [
      "wha",
      "t</w>"
    ],
    [
      "o",
      "r"
    ],
    [
      "t",
      "i"
    ],
    [
      "?",
      "</w>"
    ],
    [
      "a",
      "n"
    ],
    [
      "e",
      "r"
    ],
    [
      "d",
      "</w>"
    ],
    [
      "th",
      "e</w>"
    ],
    [
      "a",
      "c"
    ],
    [
      "l",
      "e"
    ],
    [
      "in",
      "</w>"
    ],
    [
      "e",
      "m"
    ],
    [
      "i",
      "t"
    ],
    [
      "l",
      "</w>"
    ],
    [
      "a",
      "r"
    ],
    [
      "y",
      "</w>"
    ],
    [
      "f",
      "</w>"
    ],
    [
      "s",
      ".</w>"
    ],
    [
      "s",
      "e"
    ],
    [
      "ti",
      "on"
    ],
    [
      "g",
      "</w>"
    ],
    [
      "r",
      "o"
    ],
    [
      "t",
      "o"
    ],
    [
      "o",
      "o"
    ],
    [
      "o",
      "f</w>"
    ],
    [
      "c",
      "e"
    ],
    [
      "0",
      "</w>"
    ],
    [
      "d",
      "e"
    ],
    [
      "l",
      "a"
    ],
    [
      "+",
      "</w>"
    ],
    [
      "e",
      "x"
    ],
    [
      "g",
      "e"
    ],
    [
      "u",
      "r"
    ],
    [
      ")",
      "</w>"
    ],
    [
      "in",
      "t</w>"
    ],
    [
      "s",
      "i"
    ],
    [
      "n",
      "e"
    ],
    [
      "5",
      "</w>"
    ],
    [
      "m",
      "</w>"
    ],
    [
      "or",
      "</w>"
    ],
    [
      "c",
      "a"
    ],
    [
      "s",
      "y"
    ],
    [
      "sy",
      "st"
    ],
    [
      "an",
      "d</w>"
    ],
    [
      "to",
      "</w>"
    ],
    [
      "in",
      "g</w>"
    ],
    [
      "c",
      "on"
    ],
    [
      ":",
      "</w>"
    ],
    [
      "2",
      "</w>"
    ],
    [
      "1",
      "0"
    ],
    [
      "an",
      "g"
    ],
    [
      "*",
      "</w>"
    ],
    [
      "c",
      "h"
    ],
    [
      "p",
      "ro"
    ],
    [
      "1",
      ";"
    ],
    [
      "e",
      "l"
    ],
    [
      "a",
      "t"
    ],
    [
      "x",
      "</w>"
    ],
    [
      "f",
      "i"
    ],
    [
      "u",
      "t</w>"
    ],
    [
      "p",
      "re"
    ],
    [
      "5",
      ".</w>"
    ],
    [
      "3",
      ".</w>"
    ],
    [
      "le",
      "s</w>"
    ],
    [
      "r",
      "i"
    ],
    [
      "8",
      "</w>"
    ],
    [
      "ce",
      "s"
    ],
    [
      "e",
      "d"
    ],
    [
      "t",
      "w"
    ],
    [
      "l",
      "i"
    ],
    [
      "-",
      "1;"
    ],
    [
      "w",
      "h"
    ],
    [
      "s",
      "["
    ],
    [
      "}",
      "</w>"
    ],
    [
      "b",
      "u"
    ],
    [
      "p",
      "er"
    ],
    [
      "k",
      "v"
    ],
    [
      "0",
      "."
    ],
    [
      "m",
      "p"
    ],
    [
      "g",
      "h"
    ],
    [
      "k",
      "</w>"
    ],
    [
      "le",
      "ar"
    ],
    [
      "l",
      "oo"
    ],
    [
      "loo",
      "p"
    ],
    [
      "th",
      "</w>"
    ],
    [
      "3",
      "</w>"
    ],
    [
      "t",
      "ri"
    ],
    [
      "a",
      "l"
    ],
    [
      "ex",
      "p"
    ],
    [
      "syst",
      "em</w>"
    ],
    [
      "pro",
      "ces"
    ],
    [
      "proces",
      "se"
    ],
    [
      "tion",
      "</w>"
    ],
    [
      "b",
      "e"
    ],
    [
      "en",
      "</w>"
    ],
    [
      "w",
      "rit"
    ],
    [
      "writ",
      "e</w>"
    ],
    [
      "v",
      "er"
    ],
    [
      "l",
      "="
    ],
    [
      "r",
      "="
    ],
    [
      "-1;",
      "</w>"
    ],
    [
      "(",
      "l"
    ],
    [
      "r",
      ")"
    ],
    [
      "]",
      "="
    ],
    [
      "syst",
      "em"
    ],
    [
      "c",
      "y"
    ],
    [
      "cy",
      "c"
    ],
    [
      "bu",
      "d"
    ],
    [
      "bud",
      "ge"
    ],
    [
      "t",
      "s</w>"
    ],
    [
      "s",
      "a"
    ],
    [
      "kv",
      "</w>"
    ],
    [
      "per",
      "si"
    ],
    [
      "persi",
      "st"
    ],
    [
      "persist",
      "en"
    ],
    [
      "m",
      "a"
    ],
    [
      "m",
      "o"
    ],
    [
      "mo",
      "del</w>"
    ],
    [
      "o",
      "l"
    ],
    [
      "2",
      "4"
    ],
    [
      "/",
      "</w>"
    ],
    [
      "oo",
      "</w>"
    ],
    [
      "m",
      "emor"
    ],
    [
      "memor",
      "y</w>"
    ],
    [
      "i",
      "gh"
    ],
    [
      "u",
      "t"
    ],
    [
      "s",
      "p"
    ],
    [
      "p",
      "ut</w>"
    ],
    [
      "a",
      ",</w>"
    ],
    [
      "b",
      "</w>"
    ],
    [
      "lear",
      "n"
    ],
    [
      "pre",
      "s"
    ],
    [
      "pres",
      "s"
    ],
    [
      "press",
      "ure</w>"
    ],
    [
      "to",
      "k"
    ],
    [
      "en",
      "t</w>"
    ],
    [
      "d",
      "i"
    ],
    [
      "d",
      "ar"
    ],
    [
      "re",
      "c"
    ],
    [
      "2",
      ".</w>"
    ],
    [
      "s",
      "u"
    ],
    [
      "su",
      "m</w>"
    ],
    [
      "ang",
      "les</w>"
    ],
    [
      "tri",
      "ang"
    ],
    [
      "in",
      "t"
    ],
    [
      "e",
      "s.</w>"
    ],
    [
      "7",
      "</w>"
    ],
    [
      "1",
      "5.</w>"
    ],
    [
      "5",
      "6"
    ],
    [
      "1",
      "5</w>"
    ],
    [
      "exp",
      "la"
    ],
    [
      "expla",
      "in</w>"
    ],
    [
      "an",
      "</w>"
    ],
    [
      "o",
      "perating</w>"
    ],
    [
      "har",
      "d"
    ],
    [
      "hard",
      "w"
    ],
    [
      "o",
      "ur"
    ],
    [
      "s",
      ",</w>"
    ],
    [
      "la",
      "y"
    ],
    [
      "lay",
      "er"
    ],
    [
      "be",
      "tw"
    ],
    [
      "betw",
      "e"
    ],
    [
      "betwe",
      "en</w>"
    ],
    [
      "re",
      "ver"
    ],
    [
      "char",
      "</w>"
    ],
    [
      "{",
      "</w>"
    ],
    [
      "l=",
      "0"
    ],
    [
      "wh",
      "i"
    ],
    [
      "whi",
      "le"
    ],
    [
      "while",
      "(l"
    ],
    [
      "while(l",
      "<"
    ],
    [
      "r)",
      "{"
    ],
    [
      "s[",
      "l"
    ],
    [
      "]",
      ";"
    ],
    [
      "s[",
      "r"
    ],
    [
      "sen",
      "tinel</w>"
    ],
    [
      "cyc",
      "le</w>"
    ],
    [
      "f",
      "eren"
    ],
    [
      "feren",
      "ce</w>"
    ],
    [
      "p",
      "ha"
    ],
    [
      "t",
      ",</w>"
    ],
    [
      "e",
      "c"
    ],
    [
      "ce",
      "?</w>"
    ],
    [
      "v",
      "e"
    ],
    [
      "st",
      "at"
    ],
    [
      "ac",
      "ro"
    ],
    [
      "acro",
      "s"
    ],
    [
      "acros",
      "s</w>"
    ],
    [
      "con",
      "t"
    ],
    [
      "cont",
      "ex"
    ],
    [
      "(",
      "x"
    ],
    [
      "(x",
      "-"
    ],
    [
      "1",
      "5"
    ],
    [
      "15",
      "%"
    ],
    [
      "15%",
      "</w>"
    ],
    [
      "(",
      "3"
    ],
    [
      "/",
      "3</w>"
    ],
    [
      "z",
      "one"
    ],
    [
      "g",
      "i"
    ],
    [
      "w",
      "e"
    ],
    [
      "we",
      "igh"
    ],
    [
      "weigh",
      "t"
    ],
    [
      "e",
      ",</w>"
    ],
    [
      "ac",
      "ti"
    ],
    [
      "ha",
      "s</w>"
    ],
    [
      "l",
      "o"
    ],
    [
      "ca",
      "p"
    ],
    [
      "cap",
      "it"
    ],
    [
      "capit",
      "al</w>"
    ],
    [
      "f",
      "ran"
    ],
    [
      "ne",
      "ural</w>"
    ],
    [
      "ne",
      "tw"
    ],
    [
      "netw",
      "or"
    ],
    [
      "c",
      "o"
    ],
    [
      "tion",
      "s</w>"
    ],
    [
      "o",
      "ut"
    ],
    [
      "out",
      "put</w>"
    ],
    [
      "t",
      "er"
    ],
    [
      "fi",
      "b"
    ],
    [
      "i",
      "</w>"
    ],
    [
      "(",
      "n"
    ],
    [
      "(n",
      ")"
    ],
    [
      "(n)",
      ":</w>"
    ],
    [
      "f",
      "or</w>"
    ],
    [
      "el",
      "d</w>"
    ],
    [
      "2",
      "^"
    ],
    [
      "mach",
      "ine</w>"
    ],
    [
      "wh",
      "ere</w>"
    ],
    [
      "d",
      "at"
    ],
    [
      "dat",
      "a</w>"
    ],
    [
      "w",
      "ith"
    ],
    [
      "with",
      "out</w>"
    ],
    [
      "g",
      "n"
    ],
    [
      "t",
      "ra"
    ],
    [
      "1",
      "2"
    ],
    [
      "12",
      "0</w>"
    ],
    [
      "sp",
      "e"
    ],
    [
      "0.",
      "7"
    ],
    [
      "0.7",
      "5</w>"
    ],
    [
      "dar",
      "k</w>"
    ],
    [
      "loop",
      "?</w>"
    ],
    [
      "loop",
      "</w>"
    ],
    [
      "rec",
      "ur"
    ],
    [
      "recur",
      "ren"
    ],
    [
      "tok",
      "en"
    ],
    [
      "len",
      "g"
    ],
    [
      "leng",
      "th</w>"
    ],
    [
      "w",
      "i"
    ],
    [
      "wi",
      "d"
    ],
    [
      "wid",
      "th</w>"
    ],
    [
      "ra",
      "m</w>"
    ],
    [
      "\u2192",
      "</w>"
    ],
    [
      "se",
      "ar"
    ],
    [
      "sear",
      "ch"
    ],
    [
      ";",
      "</w>"
    ],
    [
      "i",
      "f"
    ],
    [
      "if",
      "("
    ],
    [
      "if(",
      "a"
    ],
    [
      "if(a",
      "["
    ],
    [
      "if(a[",
      "m"
    ],
    [
      "t",
      ")"
    ],
    [
      "re",
      "t"
    ],
    [
      "ret",
      "ur"
    ],
    [
      "retur",
      "n"
    ],
    [
      "return",
      "</w>"
    ],
    [
      "x",
      "="
    ],
    [
      "x=",
      "5.</w>"
    ],
    [
      "y",
      "="
    ],
    [
      "y=",
      "x"
    ],
    [
      "y=x",
      "*"
    ],
    [
      "y=x*",
      "2.</w>"
    ],
    [
      "z",
      "="
    ],
    [
      "z=",
      "y"
    ],
    [
      "z=y",
      "+"
    ],
    [
      "z=y+",
      "3.</w>"
    ],
    [
      "w",
      "="
    ],
    [
      "w=",
      "z"
    ],
    [
      "w=z",
      "-"
    ],
    [
      "w=z-",
      "x"
    ],
    [
      "w=z-x",
      ".</w>"
    ],
    [
      "w",
      "?</w>"
    ],
    [
      "5",
      "*"
    ],
    [
      "5*",
      "2</w>"
    ],
    [
      "z",
      "</w>"
    ],
    [
      "10",
      "+"
    ],
    [
      "10+",
      "3</w>"
    ],
    [
      "1",
      "3.</w>"
    ],
    [
      "w",
      "</w>"
    ],
    [
      "1",
      "3"
    ],
    [
      "13",
      "-"
    ],
    [
      "13-",
      "5</w>"
    ],
    [
      "8",
      ".</w>"
    ],
    [
      "triang",
      "le"
    ],
    [
      "triangle",
      "?</w>"
    ],
    [
      "interi",
      "or</w>"
    ],
    [
      "al",
      "w"
    ],
    [
      "alw",
      "a"
    ],
    [
      "alwa",
      "y"
    ],
    [
      "alway",
      "s</w>"
    ],
    [
      "1",
      "8"
    ],
    [
      "18",
      "0</w>"
    ],
    [
      "de",
      "g"
    ],
    [
      "deg",
      "re"
    ],
    [
      "degre",
      "es.</w>"
    ],
    [
      "cal",
      "c"
    ],
    [
      "calc",
      "u"
    ],
    [
      "calcu",
      "lat"
    ],
    [
      "calculat",
      "e</w>"
    ],
    [
      "56",
      ".</w>"
    ],
    [
      "56",
      "</w>"
    ],
    [
      "7",
      "1"
    ],
    [
      "71",
      ".</w>"
    ],
    [
      "d",
      "o"
    ],
    [
      "do",
      "es.</w>"
    ],
    [
      "man",
      "a"
    ],
    [
      "mana",
      "ge"
    ],
    [
      "manage",
      "s</w>"
    ],
    [
      "hardw",
      "are</w>"
    ],
    [
      "re",
      "s"
    ],
    [
      "res",
      "our"
    ],
    [
      "resour",
      "ces,</w>"
    ],
    [
      "s",
      "ch"
    ],
    [
      "sch",
      "ed"
    ],
    [
      "sched",
      "u"
    ],
    [
      "schedu",
      "les</w>"
    ],
    [
      "processe",
      "s,</w>"
    ],
    [
      "pro",
      "v"
    ],
    [
      "prov",
      "i"
    ],
    [
      "provi",
      "de"
    ],
    [
      "provide",
      "s</w>"
    ],
    [
      "layer",
      "</w>"
    ],
    [
      "a",
      "b"
    ],
    [
      "ab",
      "straction</w>"
    ],
    [
      "a",
      "p"
    ],
    [
      "ap",
      "p"
    ],
    [
      "app",
      "li"
    ],
    [
      "appli",
      "cations</w>"
    ],
    [
      "hardw",
      "are"
    ],
    [
      "hardware",
      ".</w>"
    ],
    [
      "c",
      "</w>"
    ],
    [
      "f",
      "u"
    ],
    [
      "fu",
      "n"
    ],
    [
      "fun",
      "c"
    ],
    [
      "func",
      "tion</w>"
    ],
    [
      "rever",
      "se</w>"
    ],
    [
      "p",
      "lace"
    ],
    [
      "place",
      ".</w>"
    ],
    [
      "v",
      "o"
    ],
    [
      "vo",
      "i"
    ],
    [
      "voi",
      "d</w>"
    ],
    [
      "rever",
      "se"
    ],
    [
      "reverse",
      "("
    ],
    [
      "reverse(",
      "char</w>"
    ],
    [
      "*",
      "s"
    ],
    [
      "*s",
      ")</w>"
    ],
    [
      "l=0",
      ",</w>"
    ],
    [
      "r=",
      "st"
    ],
    [
      "r=st",
      "r"
    ],
    [
      "r=str",
      "len"
    ],
    [
      "r=strlen",
      "("
    ],
    [
      "r=strlen(",
      "s"
    ],
    [
      "r=strlen(s",
      ")"
    ],
    [
      "r=strlen(s)",
      "-1;</w>"
    ],
    [
      "while(l<",
      "r){"
    ],
    [
      "while(l<r){",
      "char</w>"
    ],
    [
      "t",
      "="
    ],
    [
      "t=",
      "s[l"
    ],
    [
      "t=s[l",
      "];"
    ],
    [
      "t=s[l];",
      "s[l"
    ],
    [
      "t=s[l];s[l",
      "+"
    ],
    [
      "t=s[l];s[l+",
      "+"
    ],
    [
      "t=s[l];s[l++",
      "]="
    ],
    [
      "t=s[l];s[l++]=",
      "s[r"
    ],
    [
      "t=s[l];s[l++]=s[r",
      "];"
    ],
    [
      "t=s[l];s[l++]=s[r];",
      "s[r"
    ],
    [
      "t=s[l];s[l++]=s[r];s[r",
      "-"
    ],
    [
      "t=s[l];s[l++]=s[r];s[r-",
      "-"
    ],
    [
      "t=s[l];s[l++]=s[r];s[r--",
      "]="
    ],
    [
      "t=s[l];s[l++]=s[r];s[r--]=",
      "t"
    ],
    [
      "t=s[l];s[l++]=s[r];s[r--]=t",
      ";"
    ],
    [
      "t=s[l];s[l++]=s[r];s[r--]=t;",
      "}</w>"
    ],
    [
      "system",
      "?</w>"
    ],
    [
      "trac",
      "k"
    ],
    [
      "track",
      "s</w>"
    ],
    [
      "budge",
      "ts</w>"
    ],
    [
      "per",
      "</w>"
    ],
    [
      "in",
      "ference</w>"
    ],
    [
      "pha",
      "se"
    ],
    [
      "phase",
      ".</w>"
    ],
    [
      "ex",
      "ce"
    ],
    [
      "exce",
      "ed"
    ],
    [
      "exceed",
      "s</w>"
    ],
    [
      "budge",
      "t,</w>"
    ],
    [
      "tri",
      "p"
    ],
    [
      "trip",
      "s</w>"
    ],
    [
      "hal",
      "ts</w>"
    ],
    [
      "ex",
      "ec"
    ],
    [
      "exec",
      "ution</w>"
    ],
    [
      "sa",
      "f"
    ],
    [
      "saf",
      "el"
    ],
    [
      "safel",
      "y"
    ],
    [
      "safely",
      ".</w>"
    ],
    [
      "persisten",
      "ce?</w>"
    ],
    [
      "persisten",
      "ce</w>"
    ],
    [
      "sa",
      "ve"
    ],
    [
      "save",
      "s</w>"
    ],
    [
      "cach",
      "e</w>"
    ],
    [
      "stat",
      "e</w>"
    ],
    [
      "re",
      "b"
    ],
    [
      "reb",
      "oo"
    ],
    [
      "reboo",
      "ts</w>"
    ],
    [
      "ma",
      "int"
    ],
    [
      "maint",
      "a"
    ],
    [
      "mainta",
      "in</w>"
    ],
    [
      "i",
      "den"
    ],
    [
      "iden",
      "tit"
    ],
    [
      "identit",
      "y</w>"
    ],
    [
      "contin",
      "u"
    ],
    [
      "continu",
      "it"
    ],
    [
      "continuit",
      "y</w>"
    ],
    [
      "\u2014",
      "</w>"
    ],
    [
      "rem",
      "em"
    ],
    [
      "remem",
      "ber"
    ],
    [
      "remember",
      "s</w>"
    ],
    [
      "p",
      "ri"
    ],
    [
      "pri",
      "or</w>"
    ],
    [
      "contex",
      "t"
    ],
    [
      "context",
      ".</w>"
    ],
    [
      "s",
      "ol"
    ],
    [
      "sol",
      "ve"
    ],
    [
      "solve",
      ":</w>"
    ],
    [
      "x",
      "^"
    ],
    [
      "x^",
      "2</w>"
    ],
    [
      "-",
      "</w>"
    ],
    [
      "5",
      "x</w>"
    ],
    [
      "6",
      "</w>"
    ],
    [
      "f",
      "ac"
    ],
    [
      "fac",
      "tor"
    ],
    [
      "factor",
      ":</w>"
    ],
    [
      "(x-",
      "2"
    ],
    [
      "(x-2",
      ")"
    ],
    [
      "(x-2)",
      "(x-"
    ],
    [
      "(x-2)(x-",
      "3"
    ],
    [
      "(x-2)(x-3",
      ")</w>"
    ],
    [
      "24",
      "0"
    ],
    [
      "240",
      "?</w>"
    ],
    [
      "0.",
      "15.</w>"
    ],
    [
      "0.",
      "15</w>"
    ],
    [
      "3",
      "6"
    ],
    [
      "36",
      ".</w>"
    ],
    [
      "si",
      "mp"
    ],
    [
      "simp",
      "lif"
    ],
    [
      "simplif",
      "y"
    ],
    [
      "simplify",
      ":</w>"
    ],
    [
      "(3",
      "x</w>"
    ],
    [
      "6",
      ")</w>"
    ],
    [
      "(3",
      "x"
    ],
    [
      "(3x",
      ")"
    ],
    [
      "(3x)",
      "/3</w>"
    ],
    [
      "6",
      "/3</w>"
    ],
    [
      "zone",
      "s"
    ],
    [
      "zones",
      "?</w>"
    ],
    [
      "re",
      "gi"
    ],
    [
      "regi",
      "on"
    ],
    [
      "region",
      "s"
    ],
    [
      "regions",
      ":</w>"
    ],
    [
      "weight",
      "s,</w>"
    ],
    [
      "kv",
      "_"
    ],
    [
      "kv_",
      "cach"
    ],
    [
      "kv_cach",
      "e,</w>"
    ],
    [
      "s",
      "c"
    ],
    [
      "sc",
      "rat"
    ],
    [
      "scrat",
      "ch"
    ],
    [
      "scratch",
      ",</w>"
    ],
    [
      "acti",
      "v"
    ],
    [
      "activ",
      "ation"
    ],
    [
      "activation",
      "s.</w>"
    ],
    [
      "e",
      "ach"
    ],
    [
      "each",
      "</w>"
    ],
    [
      "fi",
      "x"
    ],
    [
      "fix",
      "ed</w>"
    ],
    [
      "bu",
      "mp"
    ],
    [
      "bump",
      "</w>"
    ],
    [
      "al",
      "lo"
    ],
    [
      "allo",
      "cator"
    ],
    [
      "allocator",
      ".</w>"
    ],
    [
      "fran",
      "ce?</w>"
    ],
    [
      "fran",
      "ce</w>"
    ],
    [
      "p",
      "ari"
    ],
    [
      "pari",
      "s.</w>"
    ],
    [
      "networ",
      "k"
    ],
    [
      "network",
      "?</w>"
    ],
    [
      "co",
      "mp"
    ],
    [
      "comp",
      "ut"
    ],
    [
      "comput",
      "ation"
    ],
    [
      "computation",
      "al</w>"
    ],
    [
      "in",
      "sp"
    ],
    [
      "insp",
      "i"
    ],
    [
      "inspi",
      "red</w>"
    ],
    [
      "b",
      "y</w>"
    ],
    [
      "b",
      "i"
    ],
    [
      "bi",
      "olo"
    ],
    [
      "biolo",
      "gi"
    ],
    [
      "biologi",
      "cal</w>"
    ],
    [
      "ne",
      "uron"
    ],
    [
      "neuron",
      "s.</w>"
    ],
    [
      "layer",
      "s</w>"
    ],
    [
      "weight",
      "ed</w>"
    ],
    [
      "con",
      "nec"
    ],
    [
      "connec",
      "tions</w>"
    ],
    [
      "tran",
      "s"
    ],
    [
      "trans",
      "f"
    ],
    [
      "transf",
      "or"
    ],
    [
      "transfor",
      "m</w>"
    ],
    [
      "in",
      "put</w>"
    ],
    [
      "th",
      "ro"
    ],
    [
      "thro",
      "u"
    ],
    [
      "throu",
      "gh"
    ],
    [
      "through",
      "</w>"
    ],
    [
      "p",
      "ara"
    ],
    [
      "para",
      "m"
    ],
    [
      "param",
      "e"
    ],
    [
      "parame",
      "ter"
    ],
    [
      "parameter",
      "s.</w>"
    ],
    [
      "fib",
      "on"
    ],
    [
      "fibon",
      "ac"
    ],
    [
      "fibonac",
      "c"
    ],
    [
      "fibonacc",
      "i</w>"
    ],
    [
      "se",
      "q"
    ],
    [
      "seq",
      "u"
    ],
    [
      "sequ",
      "en"
    ],
    [
      "sequen",
      "ce</w>"
    ],
    [
      "p",
      "y"
    ],
    [
      "py",
      "th"
    ],
    [
      "pyth",
      "on"
    ],
    [
      "python",
      ".</w>"
    ],
    [
      "de",
      "f</w>"
    ],
    [
      "fib",
      "(n):</w>"
    ],
    [
      "0",
      ",</w>"
    ],
    [
      "1",
      "</w>"
    ],
    [
      "_",
      "</w>"
    ],
    [
      "range",
      "(n):</w>"
    ],
    [
      "y",
      "i"
    ],
    [
      "yi",
      "eld</w>"
    ],
    [
      "b",
      ",</w>"
    ],
    [
      "a",
      "+"
    ],
    [
      "a+",
      "b</w>"
    ],
    [
      "2^",
      "10"
    ],
    [
      "2^10",
      "?</w>"
    ],
    [
      "10",
      "24"
    ],
    [
      "1024",
      ".</w>"
    ],
    [
      "learn",
      "in"
    ],
    [
      "learnin",
      "g"
    ],
    [
      "learning",
      "?</w>"
    ],
    [
      "fi",
      "eld</w>"
    ],
    [
      "a",
      "i</w>"
    ],
    [
      "system",
      "s</w>"
    ],
    [
      "learn",
      "</w>"
    ],
    [
      "p",
      "at"
    ],
    [
      "pat",
      "ter"
    ],
    [
      "patter",
      "n"
    ],
    [
      "pattern",
      "s</w>"
    ],
    [
      "f",
      "ro"
    ],
    [
      "fro",
      "m</w>"
    ],
    [
      "ma",
      "k"
    ],
    [
      "mak",
      "e</w>"
    ],
    [
      "predi",
      "c"
    ],
    [
      "predic",
      "tions</w>"
    ],
    [
      "dec",
      "i"
    ],
    [
      "deci",
      "si"
    ],
    [
      "decisi",
      "on"
    ],
    [
      "decision",
      "s</w>"
    ],
    [
      "be",
      "ing</w>"
    ],
    [
      "exp",
      "li"
    ],
    [
      "expli",
      "c"
    ],
    [
      "explic",
      "it"
    ],
    [
      "explicit",
      "l"
    ],
    [
      "explicitl",
      "y</w>"
    ],
    [
      "pro",
      "g"
    ],
    [
      "prog",
      "ra"
    ],
    [
      "progra",
      "m"
    ],
    [
      "program",
      "m"
    ],
    [
      "programm",
      "ed"
    ],
    [
      "programmed",
      ".</w>"
    ],
    [
      "system",
      ".</w>"
    ],
    [
      "mon",
      "itor"
    ],
    [
      "monitor",
      "s</w>"
    ],
    [
      "aren",
      "a</w>"
    ],
    [
      "u",
      "sa"
    ],
    [
      "usa",
      "ge"
    ],
    [
      "usage",
      ".</w>"
    ],
    [
      "h",
      "igh"
    ],
    [
      "high",
      "</w>"
    ],
    [
      "si",
      "gn"
    ],
    [
      "sign",
      "al"
    ],
    [
      "signal",
      "s</w>"
    ],
    [
      "d",
      "ying</w>"
    ],
    [
      "stat",
      "e,</w>"
    ],
    [
      "red",
      "u"
    ],
    [
      "redu",
      "c"
    ],
    [
      "reduc",
      "ing</w>"
    ],
    [
      "budge",
      "t</w>"
    ],
    [
      "pre",
      "vent</w>"
    ],
    [
      "oo",
      "m"
    ],
    [
      "oom",
      ".</w>"
    ],
    [
      "tra",
      "in</w>"
    ],
    [
      "tra",
      "vel"
    ],
    [
      "travel",
      "s</w>"
    ],
    [
      "m",
      "i"
    ],
    [
      "mi",
      "les</w>"
    ],
    [
      "h",
      "our"
    ],
    [
      "hour",
      "s.</w>"
    ],
    [
      "spe",
      "ed"
    ],
    [
      "speed",
      "?</w>"
    ],
    [
      "di",
      "st"
    ],
    [
      "dist",
      "an"
    ],
    [
      "distan",
      "ce</w>"
    ],
    [
      "ti",
      "m"
    ],
    [
      "tim",
      "e</w>"
    ],
    [
      "6",
      "0</w>"
    ],
    [
      "mp",
      "h"
    ],
    [
      "mph",
      ".</w>"
    ],
    [
      "con",
      "ver"
    ],
    [
      "conver",
      "t</w>"
    ],
    [
      "f",
      "raction"
    ],
    [
      "fraction",
      ".</w>"
    ],
    [
      "7",
      "5"
    ],
    [
      "75",
      "/"
    ],
    [
      "75/",
      "10"
    ],
    [
      "75/10",
      "0</w>"
    ],
    [
      "3",
      "/"
    ],
    [
      "3/",
      "4"
    ],
    [
      "3/4",
      ".</w>"
    ],
    [
      "si",
      "lent</w>"
    ],
    [
      "recurren",
      "ce</w>"
    ],
    [
      "(",
      "=</w>"
    ],
    [
      "token",
      ")</w>"
    ],
    [
      "processe",
      "s</w>"
    ],
    [
      "emit",
      "ting</w>"
    ],
    [
      "sur",
      "face</w>"
    ],
    [
      "token",
      "s.</w>"
    ],
    [
      "rec",
      "t"
    ],
    [
      "rect",
      "ang"
    ],
    [
      "rectang",
      "le</w>"
    ],
    [
      "are",
      "a"
    ],
    [
      "area",
      "?</w>"
    ],
    [
      "4",
      "0.</w>"
    ],
    [
      "dif",
      "ference</w>"
    ],
    [
      "stora",
      "ge"
    ],
    [
      "storage",
      "?</w>"
    ],
    [
      "volati",
      "le</w>"
    ],
    [
      "f",
      "a"
    ],
    [
      "fa",
      "st</w>"
    ],
    [
      "u",
      "sed</w>"
    ],
    [
      "(",
      "di"
    ],
    [
      "(di",
      "s"
    ],
    [
      "(dis",
      "k"
    ],
    [
      "(disk",
      ")</w>"
    ],
    [
      "persisten",
      "t,</w>"
    ],
    [
      "s",
      "lo"
    ],
    [
      "slo",
      "wer"
    ],
    [
      "slower",
      ",</w>"
    ],
    [
      "h",
      "ol"
    ],
    [
      "hol",
      "d"
    ],
    [
      "hold",
      "s</w>"
    ],
    [
      "p",
      "o"
    ],
    [
      "po",
      "wer"
    ],
    [
      "power",
      "</w>"
    ],
    [
      "cyc",
      "les.</w>"
    ],
    [
      "co",
      "gn"
    ],
    [
      "cogn",
      "iti"
    ],
    [
      "cogniti",
      "ve</w>"
    ],
    [
      "dar",
      "k"
    ],
    [
      "dark",
      "_"
    ],
    [
      "dark_",
      "loop</w>"
    ],
    [
      "(",
      "ma"
    ],
    [
      "(ma",
      "m"
    ],
    [
      "(mam",
      "b"
    ],
    [
      "(mamb",
      "a</w>"
    ],
    [
      "recurren",
      "ce"
    ],
    [
      "recurrence",
      ")</w>"
    ],
    [
      "d",
      "+</w>"
    ],
    [
      "j",
      "u"
    ],
    [
      "ju",
      "d"
    ],
    [
      "jud",
      "g"
    ],
    [
      "judg",
      "m"
    ],
    [
      "judgm",
      "ent</w>"
    ],
    [
      "action",
      ".</w>"
    ],
    [
      "lat",
      "ent</w>"
    ],
    [
      "re",
      "a"
    ],
    [
      "rea",
      "s"
    ],
    [
      "reas",
      "on"
    ],
    [
      "reason",
      "ing</w>"
    ],
    [
      "fi",
      "r"
    ],
    [
      "fir",
      "st,</w>"
    ],
    [
      "poli",
      "cy</w>"
    ],
    [
      "ch",
      "ec"
    ],
    [
      "chec",
      "k</w>"
    ],
    [
      "secon",
      "d"
    ],
    [
      "second",
      ",</w>"
    ],
    [
      "th",
      "i"
    ],
    [
      "thi",
      "r"
    ],
    [
      "thir",
      "d"
    ],
    [
      "third",
      ".</w>"
    ],
    [
      "bin",
      "ar"
    ],
    [
      "binar",
      "y</w>"
    ],
    [
      "search",
      "</w>"
    ],
    [
      "c",
      ".</w>"
    ],
    [
      "b",
      "search"
    ],
    [
      "bsearch",
      "("
    ],
    [
      "bsearch(",
      "int</w>"
    ],
    [
      "*",
      "a,</w>"
    ],
    [
      "n",
      ",</w>"
    ],
    [
      "l=0",
      ","
    ],
    [
      "l=0,",
      "r="
    ],
    [
      "l=0,r=",
      "n"
    ],
    [
      "l=0,r=n",
      "-1;</w>"
    ],
    [
      "while(l<",
      "="
    ],
    [
      "while(l<=",
      "r){"
    ],
    [
      "while(l<=r){",
      "int</w>"
    ],
    [
      "m",
      "="
    ],
    [
      "m=",
      "(l"
    ],
    [
      "m=(l",
      "+"
    ],
    [
      "m=(l+",
      "r)"
    ],
    [
      "m=(l+r)",
      "/"
    ],
    [
      "m=(l+r)/",
      "2"
    ],
    [
      "m=(l+r)/2",
      ";</w>"
    ],
    [
      "if(a[m",
      "]="
    ],
    [
      "if(a[m]=",
      "="
    ],
    [
      "if(a[m]==",
      "t)"
    ],
    [
      "if(a[m]==t)",
      "return</w>"
    ],
    [
      "m",
      ";</w>"
    ],
    [
      "if(a[m",
      "]"
    ],
    [
      "if(a[m]",
      "<"
    ],
    [
      "if(a[m]<",
      "t)"
    ],
    [
      "if(a[m]<t)",
      "l="
    ],
    [
      "if(a[m]<t)l=",
      "m"
    ],
    [
      "if(a[m]<t)l=m",
      "+"
    ],
    [
      "if(a[m]<t)l=m+",
      "1;"
    ],
    [
      "if(a[m]<t)l=m+1;",
      "el"
    ],
    [
      "if(a[m]<t)l=m+1;el",
      "se</w>"
    ],
    [
      "r=",
      "m"
    ],
    [
      "r=m",
      "-1;"
    ],
    [
      "r=m-1;",
      "}</w>"
    ]
  ],
  "special_tokens": [
    "<unk>",
    "<bos>",
    "<eos>",
    "=",
    "[OO:THINK]",
    "[OO:ACT]",
    "[OO:FEEL]",
    "[OO:END]",
    "[SAFE]",
    "[SYS]",
    "[MATH]",
    "[CODE]",
    "[SYSTEM]",
    "[CHAT]",
    "[PLAN]"
  ]
}